<?xml version="1.0"?>
<MethodSetup Method="MLP::MLP">
  <GeneralInfo>
    <Info name="TMVA Release" value="4.2.1 [262657]"/>
    <Info name="ROOT Release" value="6.24/00 [399360]"/>
    <Info name="Creator" value="dqliu"/>
    <Info name="Date" value="Mon Sep 18 17:50:10 2023"/>
    <Info name="Host" value="Linux hepfarm05 4.18.0-240.1.1.el8_3.x86_64 #1 SMP Thu Nov 19 17:20:08 UTC 2020 x86_64 x86_64 x86_64 GNU/Linux"/>
    <Info name="Dir" value="/home/dqliu/work/ghost_service_work/second/run3_ghost_prob-master/Sigmoid2_2"/>
    <Info name="Training events" value="81838"/>
    <Info name="TrainingTime" value="2.27779472e+02"/>
    <Info name="AnalysisType" value="Classification"/>
  </GeneralInfo>
  <Options>
    <Option name="NCycles" modified="Yes">600</Option>
    <Option name="HiddenLayers" modified="Yes">N+5</Option>
    <Option name="NeuronType" modified="Yes">ReLU</Option>
    <Option name="RandomSeed" modified="No">1</Option>
    <Option name="EstimatorType" modified="Yes">CE</Option>
    <Option name="NeuronInputType" modified="No">sum</Option>
    <Option name="V" modified="Yes">False</Option>
    <Option name="VerbosityLevel" modified="No">Default</Option>
    <Option name="VarTransform" modified="Yes">N</Option>
    <Option name="H" modified="Yes">False</Option>
    <Option name="CreateMVAPdfs" modified="Yes">True</Option>
    <Option name="IgnoreNegWeightsInTraining" modified="No">False</Option>
    <Option name="TrainingMethod" modified="No">BP</Option>
    <Option name="LearningRate" modified="No">2.000000e-02</Option>
    <Option name="DecayRate" modified="No">1.000000e-02</Option>
    <Option name="TestRate" modified="Yes">5</Option>
    <Option name="EpochMonitoring" modified="No">False</Option>
    <Option name="Sampling" modified="No">1.000000e+00</Option>
    <Option name="SamplingEpoch" modified="No">1.000000e+00</Option>
    <Option name="SamplingImportance" modified="No">1.000000e+00</Option>
    <Option name="SamplingTraining" modified="No">True</Option>
    <Option name="SamplingTesting" modified="No">False</Option>
    <Option name="ResetStep" modified="No">50</Option>
    <Option name="Tau" modified="No">3.000000e+00</Option>
    <Option name="BPMode" modified="No">sequential</Option>
    <Option name="BatchSize" modified="No">-1</Option>
    <Option name="ConvergenceImprove" modified="No">1.000000e-30</Option>
    <Option name="ConvergenceTests" modified="No">-1</Option>
    <Option name="UseRegulator" modified="Yes">False</Option>
    <Option name="UpdateLimit" modified="No">10000</Option>
    <Option name="CalculateErrors" modified="No">False</Option>
    <Option name="WeightRange" modified="No">1.000000e+00</Option>
  </Options>
  <Variables NVar="8">
    <Variable VarIndex="0" Expression="UpgradeGhostInfo_FitVeloChi2" Label="UpgradeGhostInfo_FitVeloChi2" Title="UpgradeGhostInfo_FitVeloChi2" Unit="" Internal="UpgradeGhostInfo_FitVeloChi2" Type="F" Min="2.42707711e-06" Max="3.62531471e+01"/>
    <Variable VarIndex="1" Expression="UpgradeGhostInfo_FitTChi2" Label="UpgradeGhostInfo_FitTChi2" Title="UpgradeGhostInfo_FitTChi2" Unit="" Internal="UpgradeGhostInfo_FitTChi2" Type="F" Min="4.99749891e-02" Max="3.87896881e+01"/>
    <Variable VarIndex="2" Expression="UpgradeGhostInfo_FitTNDoF" Label="UpgradeGhostInfo_FitTNDoF" Title="UpgradeGhostInfo_FitTNDoF" Unit="" Internal="UpgradeGhostInfo_FitTNDoF" Type="F" Min="2.00000000e+00" Max="7.00000000e+00"/>
    <Variable VarIndex="3" Expression="UpgradeGhostInfo_FitMatchChi2" Label="UpgradeGhostInfo_FitMatchChi2" Title="UpgradeGhostInfo_FitMatchChi2" Unit="" Internal="UpgradeGhostInfo_FitMatchChi2" Type="F" Min="-5.03572762e-01" Max="6.13754387e+01"/>
    <Variable VarIndex="4" Expression="TRACK_CHI2" Label="TRACK_CHI2" Title="TRACK_CHI2" Unit="" Internal="TRACK_CHI2" Type="F" Min="9.66042817e-01" Max="8.00881805e+01"/>
    <Variable VarIndex="5" Expression="TRACK_PT" Label="TRACK_PT" Title="TRACK_PT" Unit="" Internal="TRACK_PT" Type="F" Min="2.41027794e+01" Max="1.36749561e+04"/>
    <Variable VarIndex="6" Expression="TRACK_NDOF" Label="TRACK_NDOF" Title="TRACK_NDOF" Unit="" Internal="TRACK_NDOF" Type="F" Min="8.00000000e+00" Max="3.70000000e+01"/>
    <Variable VarIndex="7" Expression="TRACK_ETA" Label="TRACK_ETA" Title="TRACK_ETA" Unit="" Internal="TRACK_ETA" Type="F" Min="1.30635428e+00" Max="5.86147308e+00"/>
  </Variables>
  <Spectators NSpec="0"/>
  <Classes NClass="2">
    <Class Name="Signal" Index="0"/>
    <Class Name="Background" Index="1"/>
  </Classes>
  <Transformations NTransformations="1">
    <Transform Name="Normalize">
      <Selection>
        <Input NInputs="8">
          <Input Type="Variable" Label="UpgradeGhostInfo_FitVeloChi2" Expression="UpgradeGhostInfo_FitVeloChi2"/>
          <Input Type="Variable" Label="UpgradeGhostInfo_FitTChi2" Expression="UpgradeGhostInfo_FitTChi2"/>
          <Input Type="Variable" Label="UpgradeGhostInfo_FitTNDoF" Expression="UpgradeGhostInfo_FitTNDoF"/>
          <Input Type="Variable" Label="UpgradeGhostInfo_FitMatchChi2" Expression="UpgradeGhostInfo_FitMatchChi2"/>
          <Input Type="Variable" Label="TRACK_CHI2" Expression="TRACK_CHI2"/>
          <Input Type="Variable" Label="TRACK_PT" Expression="TRACK_PT"/>
          <Input Type="Variable" Label="TRACK_NDOF" Expression="TRACK_NDOF"/>
          <Input Type="Variable" Label="TRACK_ETA" Expression="TRACK_ETA"/>
        </Input>
        <Output NOutputs="8">
          <Output Type="Variable" Label="UpgradeGhostInfo_FitVeloChi2" Expression="UpgradeGhostInfo_FitVeloChi2"/>
          <Output Type="Variable" Label="UpgradeGhostInfo_FitTChi2" Expression="UpgradeGhostInfo_FitTChi2"/>
          <Output Type="Variable" Label="UpgradeGhostInfo_FitTNDoF" Expression="UpgradeGhostInfo_FitTNDoF"/>
          <Output Type="Variable" Label="UpgradeGhostInfo_FitMatchChi2" Expression="UpgradeGhostInfo_FitMatchChi2"/>
          <Output Type="Variable" Label="TRACK_CHI2" Expression="TRACK_CHI2"/>
          <Output Type="Variable" Label="TRACK_PT" Expression="TRACK_PT"/>
          <Output Type="Variable" Label="TRACK_NDOF" Expression="TRACK_NDOF"/>
          <Output Type="Variable" Label="TRACK_ETA" Expression="TRACK_ETA"/>
        </Output>
      </Selection>
      <Class ClassIndex="0">
        <Ranges>
          <Range Index="0" Min="2.4270771064038854e-06" Max="3.4752941131591797e+01"/>
          <Range Index="1" Min="4.9974989145994186e-02" Max="3.8789688110351562e+01"/>
          <Range Index="2" Min="2.0000000000000000e+00" Max="7.0000000000000000e+00"/>
          <Range Index="3" Min="-5.0357276201248169e-01" Max="5.2854053497314453e+01"/>
          <Range Index="4" Min="9.6604281663894653e-01" Max="6.4370292663574219e+01"/>
          <Range Index="5" Min="3.9188274383544922e+01" Max="1.3674956054687500e+04"/>
          <Range Index="6" Min="8.0000000000000000e+00" Max="3.7000000000000000e+01"/>
          <Range Index="7" Min="1.3063542842864990e+00" Max="5.4899067878723145e+00"/>
        </Ranges>
      </Class>
      <Class ClassIndex="1">
        <Ranges>
          <Range Index="0" Min="2.5377752535860054e-05" Max="3.6253147125244141e+01"/>
          <Range Index="1" Min="7.9368121922016144e-02" Max="2.6485567092895508e+01"/>
          <Range Index="2" Min="2.0000000000000000e+00" Max="7.0000000000000000e+00"/>
          <Range Index="3" Min="4.7392591834068298e-02" Max="6.1375438690185547e+01"/>
          <Range Index="4" Min="1.4256484508514404e+00" Max="8.0088180541992188e+01"/>
          <Range Index="5" Min="2.4102779388427734e+01" Max="5.5805644531250000e+03"/>
          <Range Index="6" Min="8.0000000000000000e+00" Max="3.1000000000000000e+01"/>
          <Range Index="7" Min="1.5393741130828857e+00" Max="5.8614730834960938e+00"/>
        </Ranges>
      </Class>
      <Class ClassIndex="2">
        <Ranges>
          <Range Index="0" Min="2.4270771064038854e-06" Max="3.6253147125244141e+01"/>
          <Range Index="1" Min="4.9974989145994186e-02" Max="3.8789688110351562e+01"/>
          <Range Index="2" Min="2.0000000000000000e+00" Max="7.0000000000000000e+00"/>
          <Range Index="3" Min="-5.0357276201248169e-01" Max="6.1375438690185547e+01"/>
          <Range Index="4" Min="9.6604281663894653e-01" Max="8.0088180541992188e+01"/>
          <Range Index="5" Min="2.4102779388427734e+01" Max="1.3674956054687500e+04"/>
          <Range Index="6" Min="8.0000000000000000e+00" Max="3.7000000000000000e+01"/>
          <Range Index="7" Min="1.3063542842864990e+00" Max="5.8614730834960938e+00"/>
        </Ranges>
      </Class>
    </Transform>
  </Transformations>
  <MVAPdfs>
    <PDF Name="MLP_PDFSig" MinNSmooth="0" MaxNSmooth="0" InterpolMethod="2" KDE_type="1" KDE_iter="1" KDE_border="1" KDE_finefactor="1.0000000000000000e+00">
      <Histogram Name="MLP_tr_S_original" NBins="1636" XMin="1.3654128648340702e-02" XMax="1.0000000000000000e+00" HasEquidistantBins="1">
        0.00000000e+00 0.00000000e+00 0.00000000e+00 0.00000000e+00 0.00000000e+00 0.00000000e+00 0.00000000e+00 0.00000000e+00 0.00000000e+00 0.00000000e+00 0.00000000e+00 0.00000000e+00 0.00000000e+00 0.00000000e+00 0.00000000e+00 0.00000000e+00 0.00000000e+00 0.00000000e+00 0.00000000e+00 0.00000000e+00 0.00000000e+00 0.00000000e+00 0.00000000e+00 0.00000000e+00 0.00000000e+00 0.00000000e+00 0.00000000e+00 0.00000000e+00 0.00000000e+00 0.00000000e+00 0.00000000e+00 0.00000000e+00 0.00000000e+00 0.00000000e+00 0.00000000e+00 0.00000000e+00 0.00000000e+00 0.00000000e+00 0.00000000e+00 0.00000000e+00 0.00000000e+00 0.00000000e+00 0.00000000e+00 0.00000000e+00 0.00000000e+00 0.00000000e+00 0.00000000e+00 0.00000000e+00 0.00000000e+00 0.00000000e+00 0.00000000e+00 0.00000000e+00 0.00000000e+00 0.00000000e+00 0.00000000e+00 0.00000000e+00 0.00000000e+00 0.00000000e+00 0.00000000e+00 0.00000000e+00 0.00000000e+00 0.00000000e+00 0.00000000e+00 0.00000000e+00 0.00000000e+00 0.00000000e+00 0.00000000e+00 0.00000000e+00 0.00000000e+00 0.00000000e+00 0.00000000e+00 0.00000000e+00 0.00000000e+00 0.00000000e+00 0.00000000e+00 0.00000000e+00 0.00000000e+00 0.00000000e+00 0.00000000e+00 0.00000000e+00 0.00000000e+00 0.00000000e+00 0.00000000e+00 0.00000000e+00 0.00000000e+00 0.00000000e+00 0.00000000e+00 0.00000000e+00 0.00000000e+00 0.00000000e+00 0.00000000e+00 0.00000000e+00 0.00000000e+00 0.00000000e+00 0.00000000e+00 0.00000000e+00 0.00000000e+00 0.00000000e+00 0.00000000e+00 0.00000000e+00 0.00000000e+00 0.00000000e+00 0.00000000e+00 0.00000000e+00 0.00000000e+00 0.00000000e+00 0.00000000e+00 0.00000000e+00 0.00000000e+00 0.00000000e+00 0.00000000e+00 0.00000000e+00 0.00000000e+00 0.00000000e+00 0.00000000e+00 0.00000000e+00 0.00000000e+00 0.00000000e+00 0.00000000e+00 0.00000000e+00 0.00000000e+00 0.00000000e+00 0.00000000e+00 0.00000000e+00 0.00000000e+00 0.00000000e+00 0.00000000e+00 0.00000000e+00 0.00000000e+00 0.00000000e+00 0.00000000e+00 0.00000000e+00 0.00000000e+00 0.00000000e+00 0.00000000e+00 0.00000000e+00 0.00000000e+00 0.00000000e+00 0.00000000e+00 0.00000000e+00 0.00000000e+00 0.00000000e+00 0.00000000e+00 0.00000000e+00 0.00000000e+00 0.00000000e+00 0.00000000e+00 0.00000000e+00 0.00000000e+00 0.00000000e+00 0.00000000e+00 0.00000000e+00 0.00000000e+00 0.00000000e+00 0.00000000e+00 0.00000000e+00 0.00000000e+00 0.00000000e+00 0.00000000e+00 0.00000000e+00 0.00000000e+00 0.00000000e+00 0.00000000e+00 0.00000000e+00 0.00000000e+00 0.00000000e+00 0.00000000e+00 0.00000000e+00 0.00000000e+00 0.00000000e+00 0.00000000e+00 0.00000000e+00 0.00000000e+00 0.00000000e+00 0.00000000e+00 0.00000000e+00 0.00000000e+00 0.00000000e+00 0.00000000e+00 0.00000000e+00 0.00000000e+00 0.00000000e+00 0.00000000e+00 0.00000000e+00 2.15658018e-02 0.00000000e+00 0.00000000e+00 0.00000000e+00 0.00000000e+00 0.00000000e+00 0.00000000e+00 0.00000000e+00 0.00000000e+00 0.00000000e+00 0.00000000e+00 0.00000000e+00 0.00000000e+00 0.00000000e+00 0.00000000e+00 0.00000000e+00 0.00000000e+00 2.15658018e-02 0.00000000e+00 2.15658018e-02 0.00000000e+00 0.00000000e+00 0.00000000e+00 0.00000000e+00 0.00000000e+00 2.15658018e-02 0.00000000e+00 0.00000000e+00 0.00000000e+00 0.00000000e+00 2.15658018e-02 0.00000000e+00 0.00000000e+00 0.00000000e+00 0.00000000e+00 0.00000000e+00 0.00000000e+00 0.00000000e+00 0.00000000e+00 0.00000000e+00 0.00000000e+00 0.00000000e+00 0.00000000e+00 0.00000000e+00 0.00000000e+00 0.00000000e+00 0.00000000e+00 0.00000000e+00 0.00000000e+00 0.00000000e+00 0.00000000e+00 0.00000000e+00 2.15658018e-02 0.00000000e+00 0.00000000e+00 0.00000000e+00 0.00000000e+00 0.00000000e+00 0.00000000e+00 0.00000000e+00 0.00000000e+00 0.00000000e+00 0.00000000e+00 0.00000000e+00 0.00000000e+00 0.00000000e+00 0.00000000e+00 0.00000000e+00 2.15658018e-02 0.00000000e+00 0.00000000e+00 0.00000000e+00 0.00000000e+00 0.00000000e+00 2.15658018e-02 2.15658018e-02 0.00000000e+00 0.00000000e+00 0.00000000e+00 0.00000000e+00 2.15658018e-02 0.00000000e+00 0.00000000e+00 0.00000000e+00 0.00000000e+00 0.00000000e+00 0.00000000e+00 0.00000000e+00 2.15658018e-02 0.00000000e+00 0.00000000e+00 0.00000000e+00 0.00000000e+00 0.00000000e+00 0.00000000e+00 0.00000000e+00 0.00000000e+00 0.00000000e+00 0.00000000e+00 2.15658018e-02 2.15658018e-02 0.00000000e+00 0.00000000e+00 2.15658018e-02 0.00000000e+00 0.00000000e+00 0.00000000e+00 0.00000000e+00 0.00000000e+00 0.00000000e+00 0.00000000e+00 0.00000000e+00 0.00000000e+00 0.00000000e+00 0.00000000e+00 0.00000000e+00 0.00000000e+00 0.00000000e+00 0.00000000e+00 0.00000000e+00 2.15658018e-02 0.00000000e+00 0.00000000e+00 0.00000000e+00 2.15658018e-02 0.00000000e+00 0.00000000e+00 0.00000000e+00 0.00000000e+00 0.00000000e+00 0.00000000e+00 0.00000000e+00 0.00000000e+00 0.00000000e+00 0.00000000e+00 0.00000000e+00 0.00000000e+00 0.00000000e+00 0.00000000e+00 0.00000000e+00 2.15658018e-02 0.00000000e+00 0.00000000e+00 0.00000000e+00 2.15658018e-02 2.15658018e-02 0.00000000e+00 0.00000000e+00 4.31316037e-02 2.15658018e-02 0.00000000e+00 0.00000000e+00 0.00000000e+00 0.00000000e+00 0.00000000e+00 0.00000000e+00 0.00000000e+00 0.00000000e+00 0.00000000e+00 0.00000000e+00 0.00000000e+00 0.00000000e+00 0.00000000e+00 2.15658018e-02 2.15658018e-02 0.00000000e+00 0.00000000e+00 0.00000000e+00 0.00000000e+00 0.00000000e+00 2.15658018e-02 0.00000000e+00 0.00000000e+00 0.00000000e+00 4.31316037e-02 0.00000000e+00 0.00000000e+00 0.00000000e+00 0.00000000e+00 2.15658018e-02 0.00000000e+00 0.00000000e+00 0.00000000e+00 2.15658018e-02 2.15658018e-02 2.15658018e-02 0.00000000e+00 0.00000000e+00 2.15658018e-02 0.00000000e+00 0.00000000e+00 0.00000000e+00 0.00000000e+00 0.00000000e+00 0.00000000e+00 2.15658018e-02 0.00000000e+00 2.15658018e-02 2.15658018e-02 2.15658018e-02 0.00000000e+00 0.00000000e+00 0.00000000e+00 0.00000000e+00 0.00000000e+00 0.00000000e+00 0.00000000e+00 0.00000000e+00 0.00000000e+00 2.15658018e-02 0.00000000e+00 0.00000000e+00 0.00000000e+00 0.00000000e+00 2.15658018e-02 0.00000000e+00 0.00000000e+00 0.00000000e+00 2.15658018e-02 0.00000000e+00 2.15658018e-02 4.31316037e-02 2.15658018e-02 0.00000000e+00 0.00000000e+00 0.00000000e+00 0.00000000e+00 0.00000000e+00 0.00000000e+00 0.00000000e+00 0.00000000e+00 0.00000000e+00 0.00000000e+00 0.00000000e+00 0.00000000e+00 2.15658018e-02 0.00000000e+00 0.00000000e+00 2.15658018e-02 2.15658018e-02 0.00000000e+00 0.00000000e+00 0.00000000e+00 0.00000000e+00 0.00000000e+00 2.15658018e-02 2.15658018e-02 0.00000000e+00 0.00000000e+00 2.15658018e-02 0.00000000e+00 0.00000000e+00 0.00000000e+00 0.00000000e+00 0.00000000e+00 0.00000000e+00 0.00000000e+00 2.15658018e-02 0.00000000e+00 0.00000000e+00 0.00000000e+00 0.00000000e+00 0.00000000e+00 0.00000000e+00 0.00000000e+00 0.00000000e+00 4.31316037e-02 2.15658018e-02 0.00000000e+00 2.15658018e-02 0.00000000e+00 0.00000000e+00 4.31316037e-02 0.00000000e+00 2.15658018e-02 0.00000000e+00 0.00000000e+00 2.15658018e-02 2.15658018e-02 0.00000000e+00 0.00000000e+00 0.00000000e+00 0.00000000e+00 0.00000000e+00 0.00000000e+00 0.00000000e+00 0.00000000e+00 2.15658018e-02 2.15658018e-02 2.15658018e-02 2.15658018e-02 2.15658018e-02 0.00000000e+00 4.31316037e-02 2.15658018e-02 2.15658018e-02 0.00000000e+00 0.00000000e+00 0.00000000e+00 0.00000000e+00 2.15658018e-02 0.00000000e+00 2.15658018e-02 4.31316037e-02 0.00000000e+00 4.31316037e-02 2.15658018e-02 0.00000000e+00 0.00000000e+00 0.00000000e+00 4.31316037e-02 0.00000000e+00 2.15658018e-02 2.15658018e-02 0.00000000e+00 2.15658018e-02 2.15658018e-02 2.15658018e-02 0.00000000e+00 0.00000000e+00 6.46974055e-02 0.00000000e+00 2.15658018e-02 0.00000000e+00 4.31316037e-02 0.00000000e+00 0.00000000e+00 2.15658018e-02 0.00000000e+00 0.00000000e+00 0.00000000e+00 0.00000000e+00 2.15658018e-02 4.31316037e-02 4.31316037e-02 0.00000000e+00 8.62632073e-02 0.00000000e+00 2.15658018e-02 2.15658018e-02 0.00000000e+00 2.15658018e-02 4.31316037e-02 6.46974055e-02 2.15658018e-02 4.31316037e-02 0.00000000e+00 0.00000000e+00 0.00000000e+00 2.15658018e-02 6.46974055e-02 2.15658018e-02 2.15658018e-02 0.00000000e+00 0.00000000e+00 0.00000000e+00 0.00000000e+00 4.31316037e-02 2.15658018e-02 0.00000000e+00 0.00000000e+00 2.15658018e-02 4.31316037e-02 0.00000000e+00 0.00000000e+00 2.15658018e-02 2.15658018e-02 2.15658018e-02 0.00000000e+00 4.31316037e-02 4.31316037e-02 0.00000000e+00 2.15658018e-02 4.31316037e-02 0.00000000e+00 0.00000000e+00 0.00000000e+00 4.31316037e-02 4.31316037e-02 0.00000000e+00 2.15658018e-02 0.00000000e+00 0.00000000e+00 4.31316037e-02 2.15658018e-02 2.15658018e-02 6.46974055e-02 2.15658018e-02 0.00000000e+00 2.15658018e-02 0.00000000e+00 6.46974055e-02 0.00000000e+00 4.31316037e-02 0.00000000e+00 0.00000000e+00 0.00000000e+00 0.00000000e+00 4.31316037e-02 4.31316037e-02 4.31316037e-02 2.15658018e-02 2.15658018e-02 6.46974055e-02 2.15658018e-02 2.15658018e-02 2.15658018e-02 0.00000000e+00 2.15658018e-02 2.15658018e-02 2.15658018e-02 4.31316037e-02 0.00000000e+00 6.46974055e-02 0.00000000e+00 2.15658018e-02 0.00000000e+00 4.31316037e-02 6.46974055e-02 8.62632073e-02 4.31316037e-02 2.15658018e-02 2.15658018e-02 2.15658018e-02 4.31316037e-02 0.00000000e+00 2.15658018e-02 0.00000000e+00 4.31316037e-02 0.00000000e+00 0.00000000e+00 2.15658018e-02 2.15658018e-02 2.15658018e-02 2.15658018e-02 6.46974055e-02 2.15658018e-02 2.15658018e-02 2.15658018e-02 2.15658018e-02 2.15658018e-02 4.31316037e-02 8.62632073e-02 2.15658018e-02 4.31316037e-02 4.31316037e-02 2.15658018e-02 4.31316037e-02 4.31316037e-02 2.15658018e-02 6.46974055e-02 0.00000000e+00 6.46974055e-02 0.00000000e+00 0.00000000e+00 1.29394811e-01 2.15658018e-02 4.31316037e-02 6.46974055e-02 0.00000000e+00 2.15658018e-02 2.15658018e-02 0.00000000e+00 2.15658018e-02 6.46974055e-02 6.46974055e-02 8.62632073e-02 2.15658018e-02 2.15658018e-02 4.31316037e-02 6.46974055e-02 6.46974055e-02 0.00000000e+00 0.00000000e+00 6.46974055e-02 0.00000000e+00 2.15658018e-02 4.31316037e-02 4.31316037e-02 2.15658018e-02 0.00000000e+00 4.31316037e-02 0.00000000e+00 0.00000000e+00 2.15658018e-02 2.15658018e-02 2.15658018e-02 2.15658018e-02 0.00000000e+00 2.15658018e-02 2.15658018e-02 2.15658018e-02 6.46974055e-02 4.31316037e-02 2.15658018e-02 0.00000000e+00 0.00000000e+00 4.31316037e-02 2.15658018e-02 0.00000000e+00 0.00000000e+00 0.00000000e+00 4.31316037e-02 2.15658018e-02 4.31316037e-02 2.15658018e-02 6.46974055e-02 2.15658018e-02 4.31316037e-02 2.15658018e-02 4.31316037e-02 6.46974055e-02 4.31316037e-02 6.46974055e-02 6.46974055e-02 2.15658018e-02 2.15658018e-02 6.46974055e-02 6.46974055e-02 0.00000000e+00 4.31316037e-02 4.31316037e-02 0.00000000e+00 2.15658018e-02 6.46974055e-02 2.15658018e-02 2.15658018e-02 4.31316037e-02 6.46974055e-02 6.46974055e-02 2.15658018e-02 0.00000000e+00 2.15658018e-02 2.15658018e-02 6.46974055e-02 4.31316037e-02 4.31316037e-02 8.62632073e-02 0.00000000e+00 1.07829009e-01 4.31316037e-02 6.46974055e-02 2.15658018e-02 2.15658018e-02 2.15658018e-02 6.46974055e-02 2.15658018e-02 6.46974055e-02 8.62632073e-02 4.31316037e-02 0.00000000e+00 2.15658018e-02 2.15658018e-02 6.46974055e-02 4.31316037e-02 8.62632073e-02 2.15658018e-02 4.31316037e-02 6.46974055e-02 2.15658018e-02 6.46974055e-02 2.15658018e-02 0.00000000e+00 2.15658018e-02 4.31316037e-02 2.15658018e-02 4.31316037e-02 0.00000000e+00 6.46974055e-02 2.15658018e-02 6.46974055e-02 1.29394811e-01 8.62632073e-02 6.46974055e-02 8.62632073e-02 1.29394811e-01 4.31316037e-02 2.15658018e-02 4.31316037e-02 6.46974055e-02 4.31316037e-02 0.00000000e+00 2.15658018e-02 4.31316037e-02 6.46974055e-02 4.31316037e-02 2.15658018e-02 0.00000000e+00 2.15658018e-02 8.62632073e-02 4.31316037e-02 4.31316037e-02 1.50960613e-01 2.15658018e-02 2.15658018e-02 4.31316037e-02 2.15658018e-02 4.31316037e-02 1.07829009e-01 8.62632073e-02 1.50960613e-01 4.31316037e-02 8.62632073e-02 4.31316037e-02 1.50960613e-01 8.62632073e-02 4.31316037e-02 6.46974055e-02 1.07829009e-01 8.62632073e-02 6.46974055e-02 2.15658018e-02 0.00000000e+00 0.00000000e+00 2.15658018e-02 4.31316037e-02 8.62632073e-02 6.46974055e-02 4.31316037e-02 8.62632073e-02 2.15658018e-02 6.46974055e-02 4.31316037e-02 8.62632073e-02 4.31316037e-02 4.31316037e-02 6.46974055e-02 4.31316037e-02 4.31316037e-02 1.07829009e-01 4.31316037e-02 6.46974055e-02 8.62632073e-02 2.15658018e-02 6.46974055e-02 4.31316037e-02 4.31316037e-02 8.62632073e-02 1.07829009e-01 0.00000000e+00 2.15658018e-02 2.15658018e-02 1.50960613e-01 1.50960613e-01 4.31316037e-02 8.62632073e-02 2.15658018e-02 2.15658018e-02 6.46974055e-02 2.15658018e-02 4.31316037e-02 4.31316037e-02 4.31316037e-02 4.31316037e-02 1.07829009e-01 8.62632073e-02 6.46974055e-02 4.31316037e-02 2.15658018e-02 8.62632073e-02 4.31316037e-02 8.62632073e-02 4.31316037e-02 4.31316037e-02 8.62632073e-02 4.31316037e-02 0.00000000e+00 6.46974055e-02 6.46974055e-02 4.31316037e-02 6.46974055e-02 0.00000000e+00 8.62632073e-02 6.46974055e-02 8.62632073e-02 8.62632073e-02 1.29394811e-01 2.15658018e-02 4.31316037e-02 6.46974055e-02 4.31316037e-02 8.62632073e-02 0.00000000e+00 6.46974055e-02 6.46974055e-02 6.46974055e-02 1.07829009e-01 6.46974055e-02 0.00000000e+00 6.46974055e-02 4.31316037e-02 1.29394811e-01 2.15658018e-02 4.31316037e-02 6.46974055e-02 1.50960613e-01 4.31316037e-02 8.62632073e-02 8.62632073e-02 1.07829009e-01 1.50960613e-01 2.15658018e-02 1.07829009e-01 6.46974055e-02 2.15658018e-02 1.29394811e-01 4.31316037e-02 8.62632073e-02 4.31316037e-02 6.46974055e-02 2.15658018e-02 6.46974055e-02 6.46974055e-02 1.50960613e-01 1.07829009e-01 4.31316037e-02 6.46974055e-02 4.31316037e-02 1.07829009e-01 1.07829009e-01 8.62632073e-02 4.31316037e-02 1.07829009e-01 2.15658018e-02 1.07829009e-01 1.07829009e-01 6.46974055e-02 1.07829009e-01 6.46974055e-02 6.46974055e-02 1.07829009e-01 8.62632073e-02 1.29394811e-01 6.46974055e-02 6.46974055e-02 6.46974055e-02 4.31316037e-02 8.62632073e-02 6.46974055e-02 1.07829009e-01 8.62632073e-02 2.15658018e-02 8.62632073e-02 1.07829009e-01 6.46974055e-02 4.31316037e-02 4.31316037e-02 8.62632073e-02 8.62632073e-02 1.29394811e-01 8.62632073e-02 4.31316037e-02 1.50960613e-01 0.00000000e+00 4.31316037e-02 6.46974055e-02 1.29394811e-01 1.72526415e-01 1.29394811e-01 8.62632073e-02 1.29394811e-01 8.62632073e-02 6.46974055e-02 6.46974055e-02 1.07829009e-01 4.31316037e-02 6.46974055e-02 1.29394811e-01 1.29394811e-01 1.29394811e-01 4.31316037e-02 8.62632073e-02 1.72526415e-01 6.46974055e-02 1.29394811e-01 1.29394811e-01 1.94092216e-01 1.50960613e-01 1.29394811e-01 6.46974055e-02 6.46974055e-02 1.94092216e-01 1.72526415e-01 1.29394811e-01 4.31316037e-02 6.46974055e-02 1.50960613e-01 6.46974055e-02 6.46974055e-02 8.62632073e-02 8.62632073e-02 8.62632073e-02 6.46974055e-02 6.46974055e-02 4.31316037e-02 2.15658018e-02 2.15658018e-02 1.29394811e-01 6.46974055e-02 8.62632073e-02 2.15658018e-02 1.29394811e-01 6.46974055e-02 2.15658018e-01 8.62632073e-02 2.15658018e-02 1.29394811e-01 1.07829009e-01 2.15658018e-02 1.29394811e-01 1.72526415e-01 8.62632073e-02 8.62632073e-02 1.50960613e-01 8.62632073e-02 8.62632073e-02 1.29394811e-01 6.46974055e-02 1.50960613e-01 1.07829009e-01 4.31316037e-02 4.31316037e-02 1.72526415e-01 8.62632073e-02 6.46974055e-02 1.07829009e-01 4.31316037e-02 2.37223820e-01 1.29394811e-01 1.29394811e-01 1.29394811e-01 1.50960613e-01 1.29394811e-01 1.29394811e-01 1.29394811e-01 8.62632073e-02 1.07829009e-01 1.72526415e-01 2.37223820e-01 1.07829009e-01 1.07829009e-01 1.50960613e-01 1.50960613e-01 6.46974055e-02 1.29394811e-01 4.31316037e-02 1.94092216e-01 4.31316037e-02 1.50960613e-01 1.50960613e-01 1.29394811e-01 1.29394811e-01 1.29394811e-01 1.29394811e-01 2.37223820e-01 1.07829009e-01 1.07829009e-01 1.50960613e-01 1.72526415e-01 1.29394811e-01 8.62632073e-02 1.07829009e-01 4.31316037e-02 1.07829009e-01 1.07829009e-01 1.72526415e-01 1.94092216e-01 1.94092216e-01 2.15658018e-01 2.80355424e-01 1.29394811e-01 1.07829009e-01 1.94092216e-01 1.50960613e-01 1.50960613e-01 8.62632073e-02 1.94092216e-01 8.62632073e-02 1.72526415e-01 1.07829009e-01 4.31316037e-02 1.07829009e-01 2.15658018e-01 1.94092216e-01 1.07829009e-01 2.15658018e-01 6.46974055e-02 1.72526415e-01 1.29394811e-01 1.29394811e-01 1.50960613e-01 1.07829009e-01 1.94092216e-01 8.62632073e-02 1.29394811e-01 8.62632073e-02 1.07829009e-01 1.29394811e-01 1.72526415e-01 1.72526415e-01 1.07829009e-01 1.50960613e-01 1.29394811e-01 1.07829009e-01 2.58789622e-01 1.72526415e-01 1.50960613e-01 2.58789622e-01 8.62632073e-02 8.62632073e-02 1.50960613e-01 1.94092216e-01 2.15658018e-01 1.07829009e-01 1.72526415e-01 6.46974055e-02 1.72526415e-01 2.15658018e-01 8.62632073e-02 1.29394811e-01 1.72526415e-01 2.15658018e-01 1.07829009e-01 1.50960613e-01 1.29394811e-01 2.37223820e-01 1.72526415e-01 1.50960613e-01 2.37223820e-01 1.07829009e-01 1.50960613e-01 2.15658018e-01 1.07829009e-01 1.94092216e-01 1.94092216e-01 1.72526415e-01 8.62632073e-02 1.07829009e-01 2.58789622e-01 4.31316037e-02 2.15658018e-01 2.15658018e-01 1.94092216e-01 1.50960613e-01 1.72526415e-01 1.72526415e-01 6.46974055e-02 1.50960613e-01 1.29394811e-01 1.72526415e-01 1.50960613e-01 1.72526415e-01 2.80355424e-01 1.29394811e-01 1.29394811e-01 1.72526415e-01 2.37223820e-01 2.58789622e-01 3.45052829e-01 1.72526415e-01 1.94092216e-01 1.72526415e-01 1.50960613e-01 2.37223820e-01 1.72526415e-01 2.15658018e-01 2.37223820e-01 1.94092216e-01 2.15658018e-01 1.72526415e-01 1.72526415e-01 1.29394811e-01 3.01921226e-01 1.94092216e-01 1.94092216e-01 1.29394811e-01 3.01921226e-01 1.29394811e-01 1.50960613e-01 1.50960613e-01 1.50960613e-01 3.88184433e-01 3.23487027e-01 2.58789622e-01 1.50960613e-01 2.37223820e-01 1.50960613e-01 1.50960613e-01 1.29394811e-01 2.15658018e-01 1.07829009e-01 1.50960613e-01 3.88184433e-01 2.37223820e-01 2.58789622e-01 2.80355424e-01 1.29394811e-01 2.37223820e-01 1.50960613e-01 1.29394811e-01 1.72526415e-01 2.80355424e-01 1.29394811e-01 2.37223820e-01 1.94092216e-01 2.37223820e-01 2.58789622e-01 1.72526415e-01 2.58789622e-01 2.58789622e-01 2.37223820e-01 3.01921226e-01 3.01921226e-01 1.50960613e-01 6.46974055e-02 1.72526415e-01 1.94092216e-01 3.23487027e-01 1.94092216e-01 1.72526415e-01 1.94092216e-01 3.23487027e-01 3.01921226e-01 2.58789622e-01 1.94092216e-01 2.15658018e-01 1.72526415e-01 3.66618631e-01 1.29394811e-01 2.58789622e-01 3.66618631e-01 2.58789622e-01 3.66618631e-01 3.45052829e-01 1.72526415e-01 3.45052829e-01 2.58789622e-01 2.58789622e-01 2.15658018e-01 2.58789622e-01 2.58789622e-01 3.23487027e-01 3.01921226e-01 2.80355424e-01 1.72526415e-01 1.94092216e-01 3.01921226e-01 1.94092216e-01 3.88184433e-01 2.37223820e-01 3.66618631e-01 3.66618631e-01 1.94092216e-01 3.45052829e-01 2.80355424e-01 2.80355424e-01 2.80355424e-01 3.01921226e-01 1.94092216e-01 2.15658018e-01 1.94092216e-01 3.01921226e-01 2.80355424e-01 3.23487027e-01 3.45052829e-01 2.80355424e-01 1.94092216e-01 3.45052829e-01 3.23487027e-01 3.01921226e-01 2.58789622e-01 4.74447640e-01 3.88184433e-01 3.01921226e-01 3.45052829e-01 2.15658018e-01 2.80355424e-01 2.80355424e-01 3.45052829e-01 4.09750235e-01 2.80355424e-01 4.74447640e-01 3.01921226e-01 3.01921226e-01 3.01921226e-01 4.52881838e-01 4.31316037e-01 3.23487027e-01 2.58789622e-01 4.52881838e-01 5.17579244e-01 4.96013442e-01 3.45052829e-01 4.09750235e-01 3.66618631e-01 2.58789622e-01 4.09750235e-01 3.66618631e-01 2.15658018e-01 4.52881838e-01 4.31316037e-01 3.01921226e-01 2.37223820e-01 2.80355424e-01 2.80355424e-01 3.23487027e-01 3.23487027e-01 4.09750235e-01 4.09750235e-01 2.58789622e-01 3.23487027e-01 4.96013442e-01 3.88184433e-01 4.74447640e-01 3.88184433e-01 3.66618631e-01 4.52881838e-01 1.72526415e-01 2.80355424e-01 3.45052829e-01 2.80355424e-01 4.09750235e-01 3.45052829e-01 3.01921226e-01 3.23487027e-01 4.96013442e-01 3.01921226e-01 3.23487027e-01 2.58789622e-01 3.66618631e-01 5.60710848e-01 4.52881838e-01 5.39145046e-01 3.45052829e-01 3.66618631e-01 3.01921226e-01 4.52881838e-01 4.09750235e-01 6.68539857e-01 4.96013442e-01 4.31316037e-01 4.52881838e-01 5.39145046e-01 3.01921226e-01 4.09750235e-01 4.09750235e-01 3.88184433e-01 2.80355424e-01 3.01921226e-01 3.45052829e-01 3.88184433e-01 4.74447640e-01 5.17579244e-01 3.66618631e-01 5.39145046e-01 4.09750235e-01 3.45052829e-01 5.82276649e-01 4.31316037e-01 6.90105659e-01 5.82276649e-01 3.88184433e-01 3.66618631e-01 6.68539857e-01 3.88184433e-01 5.17579244e-01 7.54803064e-01 3.66618631e-01 3.45052829e-01 5.17579244e-01 4.74447640e-01 5.82276649e-01 5.39145046e-01 5.17579244e-01 4.09750235e-01 4.74447640e-01 5.82276649e-01 7.33237262e-01 6.90105659e-01 5.39145046e-01 3.88184433e-01 5.60710848e-01 6.25408253e-01 7.11671460e-01 5.82276649e-01 5.82276649e-01 4.96013442e-01 6.68539857e-01 4.74447640e-01 4.31316037e-01 5.39145046e-01 6.03842451e-01 7.97934668e-01 4.74447640e-01 6.46974055e-01 5.39145046e-01 6.46974055e-01 4.31316037e-01 8.41066271e-01 5.39145046e-01 7.11671460e-01 4.96013442e-01 6.90105659e-01 5.82276649e-01 6.25408253e-01 5.17579244e-01 5.82276649e-01 7.33237262e-01 7.11671460e-01 8.41066271e-01 1.07829009e+00 6.03842451e-01 5.60710848e-01 4.96013442e-01 5.39145046e-01 6.68539857e-01 8.62632073e-01 8.41066271e-01 7.76368866e-01 8.84197875e-01 7.11671460e-01 8.62632073e-01 7.76368866e-01 6.25408253e-01 8.41066271e-01 5.82276649e-01 7.33237262e-01 5.82276649e-01 5.82276649e-01 6.68539857e-01 7.97934668e-01 6.46974055e-01 7.54803064e-01 7.33237262e-01 6.90105659e-01 6.46974055e-01 9.05763677e-01 5.17579244e-01 8.41066271e-01 7.11671460e-01 6.90105659e-01 7.33237262e-01 5.17579244e-01 5.39145046e-01 7.11671460e-01 1.03515849e+00 6.46974055e-01 8.41066271e-01 8.41066271e-01 7.97934668e-01 1.09985589e+00 7.76368866e-01 9.70461082e-01 8.19500470e-01 1.05672429e+00 9.48895281e-01 9.70461082e-01 7.33237262e-01 8.41066271e-01 1.09985589e+00 1.31551391e+00 1.09985589e+00 1.22925070e+00 1.18611910e+00 9.92026884e-01 9.48895281e-01 1.03515849e+00 1.12142170e+00 9.05763677e-01 7.33237262e-01 9.92026884e-01 1.01359269e+00 9.70461082e-01 1.01359269e+00 8.41066271e-01 1.31551391e+00 1.25081651e+00 9.70461082e-01 1.05672429e+00 1.31551391e+00 1.18611910e+00 1.25081651e+00 9.48895281e-01 1.40177712e+00 1.33707971e+00 1.14298750e+00 1.33707971e+00 1.38021132e+00 1.35864552e+00 1.42334292e+00 1.27238231e+00 1.27238231e+00 1.38021132e+00 1.55273773e+00 1.29394811e+00 1.53117193e+00 1.53117193e+00 1.31551391e+00 1.76839575e+00 1.16455330e+00 1.35864552e+00 1.40177712e+00 1.16455330e+00 1.42334292e+00 1.31551391e+00 1.55273773e+00 1.70369834e+00 1.33707971e+00 1.46647452e+00 1.66056674e+00 1.55273773e+00 1.57430353e+00 1.53117193e+00 1.96248797e+00 1.63900094e+00 1.74682995e+00 1.57430353e+00 1.46647452e+00 1.83309316e+00 1.70369834e+00 1.78996155e+00 1.98405377e+00 1.78996155e+00 1.68213254e+00 2.15658018e+00 1.76839575e+00 2.09188278e+00 2.00561957e+00 2.07031698e+00 2.30754080e+00 2.04875117e+00 2.22127759e+00 2.19971179e+00 2.39380400e+00 2.00561957e+00 2.30754080e+00 2.02718537e+00 2.11344858e+00 2.45850141e+00 2.43693561e+00 2.26440919e+00 2.48006721e+00 1.83309316e+00 2.30754080e+00 2.52319881e+00 2.67415943e+00 2.52319881e+00 2.22127759e+00 2.45850141e+00 2.48006721e+00 2.41536981e+00 2.80355424e+00 2.39380400e+00 2.69572523e+00 2.95451485e+00 2.86825164e+00 3.34269928e+00 3.10547546e+00 3.06234386e+00 2.73885683e+00 3.12704127e+00 3.53679150e+00 3.40739669e+00 3.53679150e+00 3.29956768e+00 3.51522570e+00 3.83871273e+00 3.49365990e+00 3.53679150e+00 3.32113348e+00 3.14860707e+00 3.68775211e+00 3.81714692e+00 3.88184433e+00 4.18376556e+00 3.66618631e+00 3.96810754e+00 4.52881838e+00 4.09750235e+00 3.96810754e+00 4.55038419e+00 4.27002876e+00 4.44255518e+00 4.80917381e+00 4.91700282e+00 4.35629197e+00 5.11109503e+00 5.11109503e+00 5.28362145e+00 4.91700282e+00 5.56397687e+00 5.67180588e+00 5.43458206e+00 6.01685871e+00 6.18938513e+00 6.46974055e+00 5.71493749e+00 6.31877994e+00 7.13828041e+00 6.70696437e+00 6.16781932e+00 7.54803064e+00 6.72853017e+00 7.41863583e+00 7.97934668e+00 8.58318913e+00 7.78525446e+00 8.54005753e+00 8.97137356e+00 8.82041295e+00 8.94980776e+00 9.83400564e+00 1.01574927e+01 1.10201247e+01 1.08691641e+01 1.09985589e+01 1.11710853e+01 1.20984148e+01 1.08907299e+01 1.19690200e+01 1.23140728e+01 1.34139287e+01 1.41256002e+01 1.42981266e+01 1.46647452e+01 1.52038903e+01 1.59371276e+01 1.71016809e+01 1.66919306e+01 1.74898653e+01 1.80074445e+01 1.82878000e+01 1.88916424e+01 1.98405377e+01 2.17383282e+01 2.12638806e+01 2.27087893e+01 2.22559075e+01 2.38086452e+01 2.52751197e+01 2.81649372e+01 2.91569641e+01 3.19173867e+01 3.59501917e+01 3.86459169e+01 4.33688275e+01 4.77035537e+01 5.37204124e+01 6.07939954e+01 6.53012480e+01 6.68324199e+01 7.67526887e+01 
      </Histogram>
    </PDF>
    <PDF Name="MLP_PDFBkg" MinNSmooth="0" MaxNSmooth="0" InterpolMethod="2" KDE_type="1" KDE_iter="1" KDE_border="1" KDE_finefactor="1.0000000000000000e+00">
      <Histogram Name="MLP_tr_B_original" NBins="1636" XMin="1.3654128648340702e-02" XMax="1.0000000000000000e+00" HasEquidistantBins="1">
        3.37535080e-01 0.00000000e+00 0.00000000e+00 0.00000000e+00 3.37535080e-01 0.00000000e+00 0.00000000e+00 0.00000000e+00 0.00000000e+00 0.00000000e+00 0.00000000e+00 0.00000000e+00 0.00000000e+00 0.00000000e+00 0.00000000e+00 0.00000000e+00 0.00000000e+00 0.00000000e+00 0.00000000e+00 0.00000000e+00 0.00000000e+00 0.00000000e+00 0.00000000e+00 0.00000000e+00 0.00000000e+00 3.37535080e-01 0.00000000e+00 0.00000000e+00 0.00000000e+00 0.00000000e+00 0.00000000e+00 0.00000000e+00 0.00000000e+00 0.00000000e+00 0.00000000e+00 0.00000000e+00 0.00000000e+00 0.00000000e+00 0.00000000e+00 0.00000000e+00 0.00000000e+00 0.00000000e+00 0.00000000e+00 0.00000000e+00 0.00000000e+00 0.00000000e+00 0.00000000e+00 0.00000000e+00 0.00000000e+00 0.00000000e+00 0.00000000e+00 0.00000000e+00 0.00000000e+00 0.00000000e+00 0.00000000e+00 0.00000000e+00 0.00000000e+00 0.00000000e+00 0.00000000e+00 0.00000000e+00 0.00000000e+00 0.00000000e+00 0.00000000e+00 0.00000000e+00 0.00000000e+00 0.00000000e+00 0.00000000e+00 0.00000000e+00 0.00000000e+00 0.00000000e+00 0.00000000e+00 0.00000000e+00 0.00000000e+00 0.00000000e+00 0.00000000e+00 0.00000000e+00 0.00000000e+00 0.00000000e+00 0.00000000e+00 0.00000000e+00 0.00000000e+00 0.00000000e+00 0.00000000e+00 0.00000000e+00 0.00000000e+00 0.00000000e+00 3.37535080e-01 0.00000000e+00 0.00000000e+00 0.00000000e+00 0.00000000e+00 3.37535080e-01 0.00000000e+00 0.00000000e+00 0.00000000e+00 0.00000000e+00 0.00000000e+00 0.00000000e+00 0.00000000e+00 0.00000000e+00 0.00000000e+00 0.00000000e+00 0.00000000e+00 0.00000000e+00 0.00000000e+00 0.00000000e+00 0.00000000e+00 0.00000000e+00 0.00000000e+00 3.37535080e-01 0.00000000e+00 0.00000000e+00 0.00000000e+00 0.00000000e+00 0.00000000e+00 0.00000000e+00 0.00000000e+00 3.37535080e-01 3.37535080e-01 0.00000000e+00 0.00000000e+00 0.00000000e+00 0.00000000e+00 0.00000000e+00 0.00000000e+00 0.00000000e+00 0.00000000e+00 0.00000000e+00 0.00000000e+00 0.00000000e+00 0.00000000e+00 0.00000000e+00 0.00000000e+00 0.00000000e+00 0.00000000e+00 6.75070161e-01 0.00000000e+00 0.00000000e+00 3.37535080e-01 0.00000000e+00 0.00000000e+00 0.00000000e+00 0.00000000e+00 6.75070161e-01 0.00000000e+00 6.75070161e-01 0.00000000e+00 0.00000000e+00 0.00000000e+00 0.00000000e+00 0.00000000e+00 0.00000000e+00 0.00000000e+00 0.00000000e+00 0.00000000e+00 0.00000000e+00 0.00000000e+00 0.00000000e+00 0.00000000e+00 0.00000000e+00 0.00000000e+00 0.00000000e+00 0.00000000e+00 0.00000000e+00 0.00000000e+00 0.00000000e+00 0.00000000e+00 0.00000000e+00 0.00000000e+00 0.00000000e+00 0.00000000e+00 0.00000000e+00 0.00000000e+00 3.37535080e-01 0.00000000e+00 0.00000000e+00 0.00000000e+00 0.00000000e+00 0.00000000e+00 3.37535080e-01 0.00000000e+00 3.37535080e-01 1.35014032e+00 0.00000000e+00 0.00000000e+00 0.00000000e+00 6.75070161e-01 0.00000000e+00 0.00000000e+00 0.00000000e+00 3.37535080e-01 3.37535080e-01 0.00000000e+00 0.00000000e+00 3.37535080e-01 0.00000000e+00 3.37535080e-01 3.37535080e-01 0.00000000e+00 0.00000000e+00 3.37535080e-01 3.37535080e-01 0.00000000e+00 0.00000000e+00 0.00000000e+00 0.00000000e+00 0.00000000e+00 0.00000000e+00 0.00000000e+00 6.75070161e-01 1.01260524e+00 0.00000000e+00 6.75070161e-01 6.75070161e-01 3.37535080e-01 0.00000000e+00 0.00000000e+00 3.37535080e-01 1.01260524e+00 3.37535080e-01 6.75070161e-01 0.00000000e+00 6.75070161e-01 0.00000000e+00 3.37535080e-01 0.00000000e+00 3.37535080e-01 0.00000000e+00 3.37535080e-01 3.37535080e-01 0.00000000e+00 6.75070161e-01 0.00000000e+00 3.37535080e-01 0.00000000e+00 6.75070161e-01 0.00000000e+00 3.37535080e-01 0.00000000e+00 0.00000000e+00 0.00000000e+00 3.37535080e-01 6.75070161e-01 0.00000000e+00 3.37535080e-01 6.75070161e-01 6.75070161e-01 3.37535080e-01 0.00000000e+00 3.37535080e-01 0.00000000e+00 3.37535080e-01 0.00000000e+00 3.37535080e-01 0.00000000e+00 3.37535080e-01 6.75070161e-01 3.37535080e-01 3.37535080e-01 0.00000000e+00 0.00000000e+00 3.37535080e-01 3.37535080e-01 3.37535080e-01 3.37535080e-01 0.00000000e+00 3.37535080e-01 0.00000000e+00 0.00000000e+00 0.00000000e+00 0.00000000e+00 0.00000000e+00 6.75070161e-01 3.37535080e-01 3.37535080e-01 3.37535080e-01 6.75070161e-01 6.75070161e-01 3.37535080e-01 0.00000000e+00 3.37535080e-01 0.00000000e+00 3.37535080e-01 3.37535080e-01 0.00000000e+00 0.00000000e+00 1.01260524e+00 3.37535080e-01 3.37535080e-01 0.00000000e+00 3.37535080e-01 0.00000000e+00 1.35014032e+00 0.00000000e+00 0.00000000e+00 3.37535080e-01 1.01260524e+00 0.00000000e+00 1.35014032e+00 0.00000000e+00 3.37535080e-01 3.37535080e-01 0.00000000e+00 6.75070161e-01 6.75070161e-01 0.00000000e+00 1.01260524e+00 3.37535080e-01 3.37535080e-01 3.37535080e-01 3.37535080e-01 0.00000000e+00 3.37535080e-01 0.00000000e+00 6.75070161e-01 3.37535080e-01 1.01260524e+00 3.37535080e-01 1.35014032e+00 3.37535080e-01 3.37535080e-01 0.00000000e+00 0.00000000e+00 0.00000000e+00 3.37535080e-01 1.01260524e+00 6.75070161e-01 3.37535080e-01 3.37535080e-01 3.37535080e-01 3.37535080e-01 3.37535080e-01 3.37535080e-01 0.00000000e+00 0.00000000e+00 0.00000000e+00 6.75070161e-01 3.37535080e-01 0.00000000e+00 3.37535080e-01 0.00000000e+00 6.75070161e-01 0.00000000e+00 3.37535080e-01 0.00000000e+00 0.00000000e+00 3.37535080e-01 3.37535080e-01 3.37535080e-01 0.00000000e+00 0.00000000e+00 3.37535080e-01 0.00000000e+00 3.37535080e-01 3.37535080e-01 0.00000000e+00 0.00000000e+00 1.01260524e+00 6.75070161e-01 6.75070161e-01 6.75070161e-01 0.00000000e+00 0.00000000e+00 1.01260524e+00 6.75070161e-01 3.37535080e-01 6.75070161e-01 0.00000000e+00 0.00000000e+00 3.37535080e-01 1.01260524e+00 3.37535080e-01 0.00000000e+00 3.37535080e-01 0.00000000e+00 0.00000000e+00 3.37535080e-01 3.37535080e-01 6.75070161e-01 6.75070161e-01 1.01260524e+00 0.00000000e+00 3.37535080e-01 3.37535080e-01 6.75070161e-01 0.00000000e+00 6.75070161e-01 0.00000000e+00 6.75070161e-01 3.37535080e-01 0.00000000e+00 0.00000000e+00 3.37535080e-01 3.37535080e-01 1.35014032e+00 6.75070161e-01 3.37535080e-01 1.01260524e+00 6.75070161e-01 6.75070161e-01 6.75070161e-01 6.75070161e-01 1.01260524e+00 6.75070161e-01 0.00000000e+00 6.75070161e-01 0.00000000e+00 3.37535080e-01 0.00000000e+00 3.37535080e-01 6.75070161e-01 1.01260524e+00 0.00000000e+00 6.75070161e-01 3.37535080e-01 3.37535080e-01 3.37535080e-01 6.75070161e-01 3.37535080e-01 0.00000000e+00 1.01260524e+00 3.37535080e-01 0.00000000e+00 3.37535080e-01 0.00000000e+00 1.01260524e+00 3.37535080e-01 3.37535080e-01 3.37535080e-01 1.01260524e+00 3.37535080e-01 0.00000000e+00 3.37535080e-01 0.00000000e+00 0.00000000e+00 3.37535080e-01 0.00000000e+00 3.37535080e-01 6.75070161e-01 3.37535080e-01 0.00000000e+00 6.75070161e-01 3.37535080e-01 1.01260524e+00 6.75070161e-01 3.37535080e-01 1.35014032e+00 6.75070161e-01 0.00000000e+00 3.37535080e-01 1.01260524e+00 3.37535080e-01 3.37535080e-01 3.37535080e-01 0.00000000e+00 3.37535080e-01 3.37535080e-01 3.37535080e-01 6.75070161e-01 3.37535080e-01 1.35014032e+00 0.00000000e+00 3.37535080e-01 6.75070161e-01 3.37535080e-01 0.00000000e+00 3.37535080e-01 6.75070161e-01 3.37535080e-01 1.01260524e+00 3.37535080e-01 0.00000000e+00 6.75070161e-01 3.37535080e-01 3.37535080e-01 0.00000000e+00 1.01260524e+00 6.75070161e-01 0.00000000e+00 1.01260524e+00 6.75070161e-01 0.00000000e+00 3.37535080e-01 1.01260524e+00 3.37535080e-01 1.01260524e+00 3.37535080e-01 3.37535080e-01 6.75070161e-01 6.75070161e-01 3.37535080e-01 0.00000000e+00 6.75070161e-01 1.01260524e+00 3.37535080e-01 2.02521048e+00 0.00000000e+00 3.37535080e-01 3.37535080e-01 0.00000000e+00 6.75070161e-01 3.37535080e-01 3.37535080e-01 6.75070161e-01 6.75070161e-01 6.75070161e-01 1.01260524e+00 0.00000000e+00 0.00000000e+00 1.68767540e+00 3.37535080e-01 3.37535080e-01 6.75070161e-01 3.37535080e-01 1.01260524e+00 6.75070161e-01 3.37535080e-01 3.37535080e-01 3.37535080e-01 3.37535080e-01 6.75070161e-01 0.00000000e+00 3.37535080e-01 1.01260524e+00 3.37535080e-01 6.75070161e-01 3.37535080e-01 0.00000000e+00 3.37535080e-01 3.37535080e-01 3.37535080e-01 0.00000000e+00 6.75070161e-01 6.75070161e-01 0.00000000e+00 6.75070161e-01 3.37535080e-01 6.75070161e-01 3.37535080e-01 6.75070161e-01 3.37535080e-01 0.00000000e+00 0.00000000e+00 1.35014032e+00 1.01260524e+00 3.37535080e-01 1.01260524e+00 6.75070161e-01 0.00000000e+00 3.37535080e-01 0.00000000e+00 6.75070161e-01 0.00000000e+00 0.00000000e+00 6.75070161e-01 6.75070161e-01 1.01260524e+00 3.37535080e-01 3.37535080e-01 1.01260524e+00 6.75070161e-01 6.75070161e-01 3.37535080e-01 3.37535080e-01 3.37535080e-01 6.75070161e-01 3.37535080e-01 1.35014032e+00 1.01260524e+00 1.35014032e+00 1.01260524e+00 6.75070161e-01 6.75070161e-01 1.01260524e+00 3.37535080e-01 6.75070161e-01 3.37535080e-01 1.01260524e+00 3.37535080e-01 0.00000000e+00 0.00000000e+00 0.00000000e+00 1.35014032e+00 1.01260524e+00 6.75070161e-01 6.75070161e-01 1.01260524e+00 6.75070161e-01 3.37535080e-01 3.37535080e-01 1.01260524e+00 3.37535080e-01 3.37535080e-01 1.35014032e+00 6.75070161e-01 3.37535080e-01 6.75070161e-01 3.37535080e-01 0.00000000e+00 6.75070161e-01 6.75070161e-01 6.75070161e-01 6.75070161e-01 3.37535080e-01 1.35014032e+00 3.37535080e-01 6.75070161e-01 6.75070161e-01 0.00000000e+00 6.75070161e-01 2.02521048e+00 1.01260524e+00 6.75070161e-01 1.01260524e+00 3.37535080e-01 6.75070161e-01 3.37535080e-01 3.37535080e-01 3.37535080e-01 3.37535080e-01 3.37535080e-01 3.37535080e-01 1.68767540e+00 3.37535080e-01 6.75070161e-01 3.37535080e-01 6.75070161e-01 6.75070161e-01 1.01260524e+00 3.37535080e-01 0.00000000e+00 3.37535080e-01 1.01260524e+00 1.01260524e+00 1.01260524e+00 0.00000000e+00 1.35014032e+00 1.01260524e+00 1.01260524e+00 6.75070161e-01 6.75070161e-01 0.00000000e+00 3.37535080e-01 6.75070161e-01 3.37535080e-01 3.37535080e-01 1.35014032e+00 3.37535080e-01 6.75070161e-01 1.01260524e+00 3.37535080e-01 1.35014032e+00 1.01260524e+00 0.00000000e+00 1.35014032e+00 1.01260524e+00 6.75070161e-01 0.00000000e+00 6.75070161e-01 0.00000000e+00 1.01260524e+00 0.00000000e+00 3.37535080e-01 6.75070161e-01 6.75070161e-01 6.75070161e-01 3.37535080e-01 3.37535080e-01 3.37535080e-01 0.00000000e+00 3.37535080e-01 1.35014032e+00 6.75070161e-01 3.37535080e-01 6.75070161e-01 6.75070161e-01 3.37535080e-01 1.68767540e+00 6.75070161e-01 1.01260524e+00 1.01260524e+00 1.01260524e+00 6.75070161e-01 1.01260524e+00 1.01260524e+00 1.01260524e+00 1.01260524e+00 3.37535080e-01 6.75070161e-01 6.75070161e-01 3.37535080e-01 3.37535080e-01 1.01260524e+00 6.75070161e-01 1.01260524e+00 3.37535080e-01 0.00000000e+00 1.01260524e+00 1.01260524e+00 1.01260524e+00 3.37535080e-01 6.75070161e-01 3.37535080e-01 3.37535080e-01 1.01260524e+00 1.01260524e+00 3.37535080e-01 6.75070161e-01 3.37535080e-01 6.75070161e-01 3.37535080e-01 1.35014032e+00 1.68767540e+00 3.37535080e-01 1.01260524e+00 6.75070161e-01 3.37535080e-01 6.75070161e-01 6.75070161e-01 6.75070161e-01 1.01260524e+00 1.01260524e+00 1.01260524e+00 1.68767540e+00 1.68767540e+00 6.75070161e-01 3.37535080e-01 6.75070161e-01 6.75070161e-01 1.68767540e+00 6.75070161e-01 0.00000000e+00 1.35014032e+00 6.75070161e-01 0.00000000e+00 6.75070161e-01 1.35014032e+00 1.01260524e+00 1.35014032e+00 1.01260524e+00 3.37535080e-01 3.37535080e-01 2.70028064e+00 1.01260524e+00 3.37535080e-01 6.75070161e-01 3.37535080e-01 1.01260524e+00 1.01260524e+00 0.00000000e+00 1.01260524e+00 1.68767540e+00 1.35014032e+00 1.35014032e+00 6.75070161e-01 1.68767540e+00 6.75070161e-01 1.01260524e+00 3.37535080e-01 6.75070161e-01 3.37535080e-01 1.35014032e+00 3.37535080e-01 6.75070161e-01 3.37535080e-01 0.00000000e+00 6.75070161e-01 3.37535080e-01 1.01260524e+00 6.75070161e-01 3.37535080e-01 6.75070161e-01 1.68767540e+00 3.37535080e-01 1.68767540e+00 6.75070161e-01 3.37535080e-01 6.75070161e-01 3.37535080e-01 0.00000000e+00 3.37535080e-01 3.37535080e-01 6.75070161e-01 6.75070161e-01 1.01260524e+00 0.00000000e+00 1.01260524e+00 3.37535080e-01 1.01260524e+00 1.01260524e+00 1.01260524e+00 1.01260524e+00 6.75070161e-01 0.00000000e+00 3.37535080e-01 1.01260524e+00 6.75070161e-01 1.01260524e+00 3.37535080e-01 1.35014032e+00 1.01260524e+00 0.00000000e+00 1.35014032e+00 1.68767540e+00 3.37535080e-01 1.68767540e+00 1.01260524e+00 6.75070161e-01 1.01260524e+00 1.01260524e+00 1.35014032e+00 1.35014032e+00 1.01260524e+00 1.01260524e+00 3.37535080e-01 3.37535080e-01 1.68767540e+00 3.37535080e-01 0.00000000e+00 6.75070161e-01 1.01260524e+00 6.75070161e-01 6.75070161e-01 1.01260524e+00 6.75070161e-01 0.00000000e+00 1.01260524e+00 0.00000000e+00 3.37535080e-01 1.01260524e+00 3.37535080e-01 6.75070161e-01 3.37535080e-01 3.37535080e-01 0.00000000e+00 3.37535080e-01 6.75070161e-01 1.01260524e+00 3.37535080e-01 1.35014032e+00 0.00000000e+00 1.35014032e+00 6.75070161e-01 3.37535080e-01 6.75070161e-01 1.68767540e+00 6.75070161e-01 6.75070161e-01 3.37535080e-01 1.68767540e+00 6.75070161e-01 6.75070161e-01 6.75070161e-01 1.01260524e+00 1.35014032e+00 1.68767540e+00 1.35014032e+00 1.01260524e+00 1.35014032e+00 6.75070161e-01 3.37535080e-01 1.01260524e+00 1.35014032e+00 3.37535080e-01 1.01260524e+00 1.01260524e+00 6.75070161e-01 3.37535080e-01 1.01260524e+00 0.00000000e+00 3.37535080e-01 1.01260524e+00 6.75070161e-01 3.37535080e-01 1.35014032e+00 1.01260524e+00 1.01260524e+00 6.75070161e-01 0.00000000e+00 3.37535080e-01 1.35014032e+00 3.37535080e-01 3.37535080e-01 1.01260524e+00 1.68767540e+00 3.37535080e-01 1.01260524e+00 6.75070161e-01 1.35014032e+00 1.01260524e+00 1.35014032e+00 2.02521048e+00 3.37535080e-01 1.01260524e+00 2.02521048e+00 1.35014032e+00 0.00000000e+00 1.01260524e+00 6.75070161e-01 6.75070161e-01 0.00000000e+00 1.35014032e+00 1.01260524e+00 3.37535080e-01 1.01260524e+00 1.01260524e+00 1.35014032e+00 1.68767540e+00 6.75070161e-01 1.35014032e+00 1.35014032e+00 0.00000000e+00 1.35014032e+00 1.01260524e+00 1.68767540e+00 0.00000000e+00 3.37535080e-01 1.01260524e+00 6.75070161e-01 1.01260524e+00 3.37535080e-01 1.01260524e+00 6.75070161e-01 0.00000000e+00 1.35014032e+00 3.37535080e-01 6.75070161e-01 3.37535080e-01 1.01260524e+00 3.37535080e-01 6.75070161e-01 1.68767540e+00 6.75070161e-01 1.35014032e+00 3.37535080e-01 1.68767540e+00 3.37535080e-01 1.01260524e+00 1.35014032e+00 1.35014032e+00 6.75070161e-01 1.35014032e+00 1.01260524e+00 1.01260524e+00 6.75070161e-01 6.75070161e-01 6.75070161e-01 1.68767540e+00 1.35014032e+00 2.02521048e+00 6.75070161e-01 1.01260524e+00 1.01260524e+00 1.68767540e+00 3.37535080e-01 1.68767540e+00 1.35014032e+00 1.01260524e+00 2.02521048e+00 2.02521048e+00 1.01260524e+00 6.75070161e-01 0.00000000e+00 3.37535080e-01 1.68767540e+00 1.68767540e+00 6.75070161e-01 1.01260524e+00 6.75070161e-01 6.75070161e-01 1.01260524e+00 6.75070161e-01 6.75070161e-01 1.68767540e+00 3.03781572e+00 1.35014032e+00 2.02521048e+00 1.68767540e+00 1.35014032e+00 1.35014032e+00 6.75070161e-01 1.35014032e+00 1.01260524e+00 3.37535080e-01 6.75070161e-01 2.02521048e+00 0.00000000e+00 2.36274556e+00 1.68767540e+00 1.01260524e+00 3.37535080e-01 1.01260524e+00 1.01260524e+00 1.01260524e+00 2.36274556e+00 3.37535080e-01 1.35014032e+00 1.01260524e+00 3.37535080e-01 1.68767540e+00 3.37535080e-01 1.01260524e+00 6.75070161e-01 2.02521048e+00 6.75070161e-01 1.68767540e+00 1.01260524e+00 6.75070161e-01 1.01260524e+00 3.37535080e-01 1.35014032e+00 2.02521048e+00 2.36274556e+00 3.37535080e-01 6.75070161e-01 3.37535080e-01 3.03781572e+00 1.35014032e+00 1.35014032e+00 1.68767540e+00 1.35014032e+00 6.75070161e-01 3.37535080e-01 1.01260524e+00 1.01260524e+00 1.35014032e+00 6.75070161e-01 1.35014032e+00 1.35014032e+00 1.01260524e+00 3.37535080e-01 3.37535080e-01 2.02521048e+00 1.35014032e+00 1.68767540e+00 6.75070161e-01 0.00000000e+00 1.68767540e+00 6.75070161e-01 1.35014032e+00 1.35014032e+00 1.35014032e+00 6.75070161e-01 3.37535080e-01 2.02521048e+00 1.35014032e+00 2.02521048e+00 3.37535080e-01 3.37535080e-01 2.36274556e+00 3.37535080e-01 1.01260524e+00 1.01260524e+00 1.35014032e+00 1.01260524e+00 1.35014032e+00 3.37535080e-01 1.35014032e+00 2.02521048e+00 6.75070161e-01 1.01260524e+00 6.75070161e-01 3.37535080e-01 1.68767540e+00 1.01260524e+00 1.35014032e+00 1.01260524e+00 6.75070161e-01 6.75070161e-01 6.75070161e-01 6.75070161e-01 1.35014032e+00 3.37535080e-01 1.01260524e+00 3.37535080e-01 1.68767540e+00 6.75070161e-01 1.35014032e+00 1.35014032e+00 3.37535080e-01 1.35014032e+00 3.37535080e-01 1.35014032e+00 0.00000000e+00 1.01260524e+00 6.75070161e-01 2.36274556e+00 1.68767540e+00 1.35014032e+00 2.36274556e+00 2.02521048e+00 2.70028064e+00 3.37535080e+00 3.37535080e-01 3.37535080e-01 3.37535080e-01 6.75070161e-01 1.01260524e+00 1.35014032e+00 0.00000000e+00 1.68767540e+00 1.01260524e+00 1.35014032e+00 1.01260524e+00 1.01260524e+00 3.37535080e-01 1.01260524e+00 6.75070161e-01 1.35014032e+00 2.02521048e+00 1.35014032e+00 1.01260524e+00 1.35014032e+00 1.01260524e+00 1.68767540e+00 0.00000000e+00 1.01260524e+00 1.01260524e+00 1.01260524e+00 1.01260524e+00 3.37535080e+00 1.01260524e+00 6.75070161e-01 2.02521048e+00 1.01260524e+00 6.75070161e-01 2.02521048e+00 1.35014032e+00 1.68767540e+00 1.35014032e+00 6.75070161e-01 1.01260524e+00 2.36274556e+00 6.75070161e-01 2.70028064e+00 6.75070161e-01 1.35014032e+00 1.35014032e+00 1.35014032e+00 1.01260524e+00 3.37535080e-01 2.36274556e+00 2.02521048e+00 3.37535080e-01 1.35014032e+00 0.00000000e+00 6.75070161e-01 1.35014032e+00 1.35014032e+00 2.02521048e+00 1.35014032e+00 0.00000000e+00 1.01260524e+00 6.75070161e-01 2.36274556e+00 1.35014032e+00 1.01260524e+00 1.35014032e+00 1.35014032e+00 2.36274556e+00 1.01260524e+00 6.75070161e-01 1.68767540e+00 2.02521048e+00 1.01260524e+00 1.01260524e+00 1.01260524e+00 2.02521048e+00 1.68767540e+00 3.37535080e-01 1.01260524e+00 1.01260524e+00 3.37535080e-01 6.75070161e-01 1.01260524e+00 1.35014032e+00 3.37535080e-01 1.35014032e+00 1.01260524e+00 2.02521048e+00 2.02521048e+00 1.35014032e+00 6.75070161e-01 1.35014032e+00 6.75070161e-01 2.02521048e+00 2.02521048e+00 1.35014032e+00 1.35014032e+00 2.02521048e+00 1.68767540e+00 1.68767540e+00 6.75070161e-01 1.35014032e+00 1.01260524e+00 1.35014032e+00 0.00000000e+00 0.00000000e+00 6.75070161e-01 1.35014032e+00 1.35014032e+00 1.35014032e+00 1.35014032e+00 1.01260524e+00 2.02521048e+00 2.36274556e+00 6.75070161e-01 1.35014032e+00 1.35014032e+00 1.01260524e+00 2.02521048e+00 1.68767540e+00 6.75070161e-01 6.75070161e-01 1.35014032e+00 0.00000000e+00 2.02521048e+00 2.02521048e+00 1.01260524e+00 1.35014032e+00 1.35014032e+00 1.01260524e+00 6.75070161e-01 2.02521048e+00 1.68767540e+00 3.37535080e-01 2.02521048e+00 2.36274556e+00 1.35014032e+00 1.35014032e+00 1.35014032e+00 1.01260524e+00 1.01260524e+00 2.36274556e+00 3.37535080e-01 6.75070161e-01 6.75070161e-01 1.68767540e+00 1.68767540e+00 1.68767540e+00 1.01260524e+00 2.02521048e+00 3.37535080e-01 6.75070161e-01 2.02521048e+00 6.75070161e-01 1.01260524e+00 2.36274556e+00 1.01260524e+00 0.00000000e+00 3.37535080e-01 1.35014032e+00 1.68767540e+00 2.70028064e+00 1.68767540e+00 3.37535080e+00 1.01260524e+00 0.00000000e+00 1.01260524e+00 2.02521048e+00 1.68767540e+00 3.37535080e-01 6.75070161e-01 2.02521048e+00 2.36274556e+00 3.37535080e-01 1.35014032e+00 1.35014032e+00 2.36274556e+00 1.01260524e+00 6.75070161e-01 1.01260524e+00 1.35014032e+00 1.35014032e+00 1.01260524e+00 1.35014032e+00 3.37535080e+00 1.01260524e+00 1.35014032e+00 3.37535080e-01 2.36274556e+00 1.68767540e+00 2.36274556e+00 6.75070161e-01 1.01260524e+00 1.35014032e+00 6.75070161e-01 1.35014032e+00 1.35014032e+00 6.75070161e-01 1.35014032e+00 2.70028064e+00 2.02521048e+00 1.35014032e+00 2.70028064e+00 1.68767540e+00 1.68767540e+00 1.68767540e+00 1.35014032e+00 2.02521048e+00 1.35014032e+00 2.36274556e+00 1.01260524e+00 1.01260524e+00 1.68767540e+00 2.70028064e+00 1.35014032e+00 2.02521048e+00 2.70028064e+00 1.35014032e+00 1.68767540e+00 1.01260524e+00 2.02521048e+00 1.68767540e+00 1.68767540e+00 3.37535080e-01 1.68767540e+00 6.75070161e-01 3.03781572e+00 1.01260524e+00 1.68767540e+00 1.68767540e+00 1.68767540e+00 1.35014032e+00 1.01260524e+00 2.02521048e+00 6.75070161e-01 2.36274556e+00 2.36274556e+00 2.02521048e+00 2.36274556e+00 2.70028064e+00 1.68767540e+00 1.01260524e+00 1.68767540e+00 1.35014032e+00 0.00000000e+00 1.68767540e+00 2.02521048e+00 6.75070161e-01 1.68767540e+00 1.68767540e+00 2.02521048e+00 2.36274556e+00 2.02521048e+00 2.36274556e+00 2.36274556e+00 2.36274556e+00 2.02521048e+00 3.03781572e+00 1.35014032e+00 1.68767540e+00 1.35014032e+00 1.35014032e+00 2.70028064e+00 2.36274556e+00 2.36274556e+00 6.75070161e-01 1.35014032e+00 1.35014032e+00 1.35014032e+00 6.75070161e-01 1.68767540e+00 2.36274556e+00 2.02521048e+00 2.70028064e+00 1.68767540e+00 1.35014032e+00 2.70028064e+00 1.68767540e+00 2.02521048e+00 2.70028064e+00 1.68767540e+00 1.68767540e+00 1.68767540e+00 1.01260524e+00 1.35014032e+00 2.02521048e+00 1.35014032e+00 2.02521048e+00 1.68767540e+00 1.68767540e+00 2.36274556e+00 6.75070161e-01 1.68767540e+00 1.35014032e+00 1.01260524e+00 1.35014032e+00 1.35014032e+00 2.36274556e+00 1.35014032e+00 1.01260524e+00 1.01260524e+00 6.75070161e-01 2.02521048e+00 1.35014032e+00 1.01260524e+00 1.35014032e+00 1.01260524e+00 1.35014032e+00 1.01260524e+00 1.01260524e+00 3.03781572e+00 1.35014032e+00 2.70028064e+00 2.70028064e+00 1.68767540e+00 1.68767540e+00 3.03781572e+00 2.02521048e+00 1.68767540e+00 1.35014032e+00 1.68767540e+00 1.35014032e+00 6.75070161e-01 0.00000000e+00 1.68767540e+00 2.02521048e+00 2.02521048e+00 6.75070161e-01 1.35014032e+00 3.03781572e+00 6.75070161e-01 1.35014032e+00 2.02521048e+00 2.70028064e+00 2.02521048e+00 2.02521048e+00 2.02521048e+00 3.37535080e+00 1.68767540e+00 1.35014032e+00 6.75070161e-01 1.01260524e+00 2.36274556e+00 3.03781572e+00 2.02521048e+00 1.35014032e+00 1.35014032e+00 3.37535080e+00 1.68767540e+00 1.01260524e+00 3.37535080e-01 3.03781572e+00 3.03781572e+00 3.03781572e+00 1.35014032e+00 1.01260524e+00 2.70028064e+00 4.05042096e+00 4.05042096e+00 2.36274556e+00 2.02521048e+00 2.36274556e+00 2.36274556e+00 1.68767540e+00 1.35014032e+00 1.35014032e+00 1.35014032e+00 3.37535080e+00 1.68767540e+00 2.02521048e+00 1.68767540e+00 3.03781572e+00 1.35014032e+00 2.02521048e+00 2.70028064e+00 3.71288588e+00 1.35014032e+00 6.75070161e-01 1.35014032e+00 1.35014032e+00 2.70028064e+00 2.70028064e+00 1.68767540e+00 1.35014032e+00 1.01260524e+00 1.35014032e+00 1.35014032e+00 3.03781572e+00 3.03781572e+00 1.68767540e+00 2.02521048e+00 3.03781572e+00 1.35014032e+00 1.35014032e+00 3.37535080e+00 2.70028064e+00 1.68767540e+00 4.05042096e+00 3.37535080e+00 3.37535080e+00 1.68767540e+00 1.68767540e+00 2.36274556e+00 1.01260524e+00 3.37535080e+00 3.03781572e+00 2.02521048e+00 2.70028064e+00 3.37535080e+00 3.03781572e+00 3.37535080e+00 2.70028064e+00 1.01260524e+00 2.70028064e+00 2.70028064e+00 1.35014032e+00 3.03781572e+00 2.02521048e+00 1.68767540e+00 1.68767540e+00 4.05042096e+00 3.03781572e+00 3.03781572e+00 1.01260524e+00 2.02521048e+00 2.02521048e+00 3.37535080e+00 3.37535080e+00 2.02521048e+00 3.03781572e+00 2.02521048e+00 2.02521048e+00 3.71288588e+00 3.37535080e+00 2.70028064e+00 2.02521048e+00 1.68767540e+00 4.38795604e+00 3.37535080e+00 2.70028064e+00 1.68767540e+00 1.68767540e+00 5.06302621e+00 1.35014032e+00 2.02521048e+00 2.02521048e+00 4.38795604e+00 2.36274556e+00 2.70028064e+00 3.03781572e+00 3.71288588e+00 3.37535080e+00 4.72549112e+00 2.70028064e+00 3.37535080e+00 1.68767540e+00 2.70028064e+00 2.02521048e+00 2.70028064e+00 3.71288588e+00 3.03781572e+00 3.03781572e+00 4.38795604e+00 3.71288588e+00 1.68767540e+00 2.70028064e+00 3.03781572e+00 5.73809637e+00 4.38795604e+00 4.05042096e+00 3.03781572e+00 5.40056129e+00 2.70028064e+00 4.72549112e+00 2.36274556e+00 3.03781572e+00 3.03781572e+00 3.71288588e+00 2.36274556e+00 3.37535080e+00 4.72549112e+00 3.71288588e+00 2.36274556e+00 2.36274556e+00 5.06302621e+00 2.36274556e+00 3.71288588e+00 4.05042096e+00 2.70028064e+00 4.72549112e+00 2.70028064e+00 4.05042096e+00 3.03781572e+00 2.70028064e+00 4.38795604e+00 5.06302621e+00 2.36274556e+00 2.70028064e+00 2.36274556e+00 5.06302621e+00 3.37535080e+00 3.37535080e+00 4.38795604e+00 4.05042096e+00 3.03781572e+00 2.02521048e+00 4.05042096e+00 4.05042096e+00 2.36274556e+00 3.71288588e+00 3.71288588e+00 4.05042096e+00 2.36274556e+00 5.06302621e+00 4.72549112e+00 4.05042096e+00 4.05042096e+00 3.71288588e+00 4.38795604e+00 4.05042096e+00 4.05042096e+00 3.03781572e+00 3.71288588e+00 3.03781572e+00 2.70028064e+00 3.71288588e+00 4.38795604e+00 1.35014032e+00 2.70028064e+00 2.36274556e+00 1.68767540e+00 3.71288588e+00 3.37535080e+00 3.37535080e+00 3.03781572e+00 3.71288588e+00 3.03781572e+00 2.02521048e+00 6.75070161e-01 1.35014032e+00 1.68767540e+00 1.01260524e+00 1.01260524e+00 1.01260524e+00 
      </Histogram>
    </PDF>
  </MVAPdfs>
  <Weights>
    <Layout NLayers="3">
      <Layer Index="0" NNeurons="9">
        <Neuron NSynapses="13">
          3.9980595761898496e-01 1.2276851973531437e+00 7.7294690222294260e-01 1.7302294448018074e+00 -1.3393129590858846e-01 9.2477722919971672e-01 9.9393765917860766e-01 2.0073994044834538e+00 -8.6633823871498172e-01 -1.8750381558921625e+00 1.1856137591176010e+00 1.7931684288774457e+00 4.1806189558326201e-01 
        </Neuron>
        <Neuron NSynapses="13">
          2.2584886445785379e-01 2.7521485425954240e-01 2.4672592295791342e+00 -4.1293012537062168e-01 2.3875490043876262e+00 5.3104958148219672e-01 8.9623147010962589e-01 -2.5511344941430186e-01 5.0474990059676039e-01 2.0427544016021826e-01 -1.8468362961277132e+00 2.1810251011115951e+00 -1.4446838530805708e+00 
        </Neuron>
        <Neuron NSynapses="13">
          1.7066978197524567e+00 -1.6139654671736803e-01 -3.4021927570007264e+00 1.3765562884509563e-01 -6.6499284261176217e-01 -1.7318130496250833e-01 -9.6241182713387186e-01 3.0372111438760391e-01 -1.3280839437460901e-01 -7.3260785829837205e-01 6.5139065529605644e-01 4.1015494688605864e-01 7.4107148615623930e-01 
        </Neuron>
        <Neuron NSynapses="13">
          1.1891155235290349e+00 7.7060794962831070e-01 5.5608170136875146e-01 1.8730462873354554e+00 3.9029880929034722e+00 -4.7772685100199626e+00 -3.2782680302703637e+00 6.9341753592318434e-01 -5.1086504114727642e+00 3.0123037408271638e+00 3.7435223975220437e+00 3.4363429152935177e+00 1.3417477657529817e+00 
        </Neuron>
        <Neuron NSynapses="13">
          -1.2346510126862793e+00 1.0333236466224878e+00 -4.8577946666528360e-01 -9.0780009049922228e-01 -5.2871563520938336e+00 -2.7005028439730285e+00 5.3963331628864719e-01 4.4000018303160399e-01 -1.1381625190553040e+00 -3.0501342996995551e-01 2.0246691912492110e+00 -4.0973997053489049e+00 1.4304808814648680e+00 
        </Neuron>
        <Neuron NSynapses="13">
          -1.4630116856208202e+00 1.5163545901542003e-01 -1.5946680174699657e+00 7.6750845089554787e-01 -1.4520026388167571e+01 5.3756341309925277e+00 7.6881821382934712e-01 1.2151280255967676e+00 7.1730880876860033e+00 8.3250578859258817e-01 -6.5785037634481125e-01 -1.4415903885946845e+01 -5.0614779046934688e-01 
        </Neuron>
        <Neuron NSynapses="13">
          2.0566744960109258e+00 2.9190101778038963e-01 1.0894298539575825e-01 6.4254289865493774e-01 3.1611044455032626e+00 1.7181736193263863e+00 -5.9670323392706093e-01 2.3261402130560649e-01 3.6874336429385308e+00 -1.6683628800809076e+00 -5.1289840288181310e+00 -5.2278042207868891e-01 8.6315403977252358e-01 
        </Neuron>
        <Neuron NSynapses="13">
          -1.1019041478493007e-01 3.3301285518845405e+00 -1.3137277513589125e+00 -8.2554342690855265e-01 9.0501750915017477e-03 6.2798400708494484e-01 -1.9216875852233810e+00 -1.7592132121296316e+00 -3.1769138550349291e-01 -2.4226054202932130e+00 -5.4698685200085362e-01 -2.2796007370672011e-01 3.6364227968524809e+00 
        </Neuron>
        <Neuron NSynapses="13">
          -1.5847455189357376e+00 1.5907075287028005e+00 1.7572762251428942e-01 -8.0427955649793148e-01 -1.0469768280483127e+01 1.6714843588057096e+00 -2.1629192279428220e+00 -5.5187164020924419e-02 5.5663260131698298e+00 -1.2985586335160710e+00 -1.1013263227388619e+00 -1.0990781397199765e+01 -4.9396475095876319e-01 
        </Neuron>
      </Layer>
      <Layer Index="1" NNeurons="14">
        <Neuron NSynapses="1">
          -7.3515864228209249e-01 
        </Neuron>
        <Neuron NSynapses="1">
          -1.5119551494704788e+00 
        </Neuron>
        <Neuron NSynapses="1">
          -7.2759505581569439e-01 
        </Neuron>
        <Neuron NSynapses="1">
          -1.5906622782349586e+00 
        </Neuron>
        <Neuron NSynapses="1">
          -2.1419540956407044e+00 
        </Neuron>
        <Neuron NSynapses="1">
          9.3395351567319274e-01 
        </Neuron>
        <Neuron NSynapses="1">
          -2.2126414143609336e+00 
        </Neuron>
        <Neuron NSynapses="1">
          1.3424682566511810e+00 
        </Neuron>
        <Neuron NSynapses="1">
          7.9004194070361577e-01 
        </Neuron>
        <Neuron NSynapses="1">
          8.5666513451780157e-01 
        </Neuron>
        <Neuron NSynapses="1">
          -8.2433733332713810e-01 
        </Neuron>
        <Neuron NSynapses="1">
          -1.7365027488247986e+00 
        </Neuron>
        <Neuron NSynapses="1">
          1.1324578958788032e+00 
        </Neuron>
        <Neuron NSynapses="1">
          2.5306921214351146e+00 
        </Neuron>
      </Layer>
      <Layer Index="2" NNeurons="1">
        <Neuron NSynapses="0"/>
      </Layer>
    </Layout>
  </Weights>
</MethodSetup>
